const unsigned char model_tflite[] = {28,0,0,0,84,70,76,51,20,0,32,0,28,0,24,0,20,0,16,0,12,0,0,0,8,0,4,0,20,0,0,0,28,0,0,0,152,0,0,0,24,1,0,0,52,6,0,0,68,6,0,0,140,29,0,0,3,0,0,0,1,0,0,0,16,0,0,0,0,0,10,0,16,0,12,0,8,0,4,0,10,0,0,0,12,0,0,0,28,0,0,0,60,0,0,0,15,0,0,0,115,101,114,118,105,110,103,95,100,101,102,97,117,108,116,0,1,0,0,0,4,0,0,0,104,255,255,255,26,0,0,0,4,0,0,0,8,0,0,0,111,117,116,112,117,116,95,48,0,0,0,0,1,0,0,0,4,0,0,0,166,249,255,255,4,0,0,0,15,0,0,0,107,101,114,97,115,95,116,101,110,115,111,114,95,49,56,0,3,0,0,0,92,0,0,0,44,0,0,0,4,0,0,0,184,255,255,255,30,0,0,0,4,0,0,0,19,0,0,0,67,79,78,86,69,82,83,73,79,78,95,77,69,84,65,68,65,84,65,0,220,255,255,255,29,0,0,0,4,0,0,0,19,0,0,0,109,105,110,95,114,117,110,116,105,109,101,95,118,101,114,115,105,111,110,0,8,0,12,0,8,0,4,0,8,0,0,0,28,0,0,0,4,0,0,0,19,0,0,0,109,105,110,95,114,117,110,116,105,109,101,95,118,101,114,115,105,111,110,0,31,0,0,0,24,5,0,0,16,5,0,0,248,4,0,0,208,4,0,0,96,4,0,0,16,4,0,0,64,3,0,0,0,3,0,0,132,2,0,0,68,2,0,0,236,1,0,0,196,1,0,0,124,1,0,0,84,1,0,0,60,1,0,0,40,1,0,0,12,1,0,0,4,1,0,0,252,0,0,0,244,0,0,0,236,0,0,0,228,0,0,0,220,0,0,0,212,0,0,0,204,0,0,0,196,0,0,0,188,0,0,0,180,0,0,0,148,0,0,0,116,0,0,0,4,0,0,0,198,250,255,255,4,0,0,0,96,0,0,0,12,0,0,0,8,0,14,0,8,0,4,0,8,0,0,0,16,0,0,0,40,0,0,0,0,0,6,0,8,0,4,0,6,0,0,0,4,0,0,0,1,0,0,0,235,3,0,0,12,0,24,0,20,0,16,0,12,0,4,0,12,0,0,0,38,178,70,81,195,229,164,127,2,0,0,0,2,0,0,0,4,0,0,0,6,0,0,0,50,46,49,57,46,48,0,0,50,251,255,255,4,0,0,0,16,0,0,0,0,0,0,0,0,0,0,0,0,0,0,0,0,0,0,0,78,251,255,255,4,0,0,0,16,0,0,0,49,46,49,52,46,48,0,0,0,0,0,0,0,0,0,0,128,229,255,255,132,229,255,255,136,229,255,255,140,229,255,255,144,229,255,255,148,229,255,255,152,229,255,255,156,229,255,255,160,229,255,255,164,229,255,255,168,229,255,255,150,251,255,255,4,0,0,0,9,0,0,0,221,129,157,81,74,222,44,130,151,0,0,0,174,251,255,255,4,0,0,0,4,0,0,0,0,0,0,0,190,251,255,255,4,0,0,0,6,0,0,0,127,129,127,127,127,129,0,0,210,251,255,255,4,0,0,0,24,0,0,0,37,51,0,0,133,240,255,255,192,14,0,0,7,180,255,255,4,16,0,0,85,252,255,255,246,251,255,255,4,0,0,0,54,0,0,0,244,208,83,31,77,55,204,3,239,155,121,48,190,241,183,91,52,62,172,39,127,119,100,93,190,139,82,230,22,76,156,180,28,125,12,108,144,191,127,129,100,253,201,129,99,93,127,0,129,151,124,14,60,127,0,0,58,252,255,255,4,0,0,0,24,0,0,0,0,0,0,0,0,0,0,0,0,0,0,0,0,0,0,0,0,0,0,0,0,0,0,0,94,252,255,255,4,0,0,0,72,0,0,0,224,246,127,54,126,243,77,199,102,46,95,127,14,229,129,45,190,83,37,127,147,76,203,44,23,193,127,18,62,195,64,186,129,38,164,102,253,187,20,129,52,138,185,241,203,255,45,127,236,44,129,51,121,199,3,100,132,11,216,129,176,223,243,13,129,50,147,118,129,65,80,231,178,252,255,255,4,0,0,0,48,0,0,0,71,253,255,255,65,254,255,255,32,6,0,0,116,14,0,0,144,6,0,0,252,255,255,255,119,10,0,0,142,10,0,0,119,11,0,0,3,255,255,255,221,7,0,0,113,8,0,0,238,252,255,255,4,0,0,0,108,0,0,0,172,214,195,54,42,41,234,181,184,6,230,154,196,129,146,106,81,42,129,129,190,4,181,158,153,198,129,76,127,104,196,191,129,169,165,172,152,220,150,118,34,95,212,142,206,104,191,129,152,145,174,127,91,62,188,202,151,160,129,135,199,176,21,114,64,46,177,166,148,127,200,145,189,134,54,52,28,105,0,255,170,250,166,184,154,143,211,92,50,15,154,7,149,137,134,151,129,179,9,83,65,127,137,228,180,225,161,184,102,253,255,255,4,0,0,0,48,0,0,0,0,0,0,0,0,0,0,0,0,0,0,0,0,0,0,0,0,0,0,0,0,0,0,0,0,0,0,0,0,0,0,0,0,0,0,0,0,0,0,0,0,0,0,0,0,0,0,0,162,253,255,255,4,0,0,0,192,0,0,0,129,145,6,22,98,120,227,36,202,3,98,178,87,86,110,53,201,142,106,31,251,189,161,127,127,242,161,102,204,73,95,165,232,198,207,174,31,6,240,88,20,4,125,127,75,171,123,120,246,23,173,146,11,42,207,21,129,242,3,215,85,80,164,205,138,200,86,206,61,129,93,76,244,129,248,146,52,66,105,163,98,10,238,102,76,107,190,178,252,231,135,15,2,19,129,53,52,39,25,248,228,226,215,202,129,36,203,145,129,229,11,27,52,217,23,247,239,16,230,16,129,38,204,195,79,26,204,23,27,190,225,250,230,160,177,250,155,61,111,213,80,30,155,127,165,196,58,185,127,199,153,232,167,49,64,160,81,49,209,116,32,207,204,198,199,55,181,129,129,196,14,175,54,196,3,230,252,54,65,223,187,78,46,235,165,77,90,8,105,68,127,68,110,254,255,255,4,0,0,0,64,0,0,0,0,255,255,255,16,0,0,0,15,1,0,0,234,255,255,255,67,0,0,0,166,255,255,255,215,0,0,0,131,255,255,255,49,1,0,0,77,0,0,0,92,255,255,255,197,1,0,0,251,255,255,255,138,1,0,0,183,255,255,255,230,255,255,255,186,254,255,255,4,0,0,0,96,0,0,0,6,203,162,227,65,248,181,249,247,32,107,151,113,238,127,49,73,205,191,11,10,31,107,216,191,219,10,235,47,129,253,30,21,181,28,0,250,250,170,39,97,193,129,225,220,111,134,14,196,65,252,216,2,33,206,57,72,48,245,129,118,76,10,187,4,233,239,253,129,201,19,181,141,93,72,51,193,156,34,204,159,7,58,41,129,52,15,201,175,2,208,62,199,0,205,201,38,255,255,255,4,0,0,0,24,0,0,0,212,252,255,255,210,253,255,255,157,2,0,0,214,255,255,255,231,3,0,0,135,255,255,255,74,255,255,255,4,0,0,0,8,0,0,0,1,0,0,0,2,0,0,0,116,233,255,255,120,233,255,255,15,0,0,0,77,76,73,82,32,67,111,110,118,101,114,116,101,100,46,0,1,0,0,0,20,0,0,0,0,0,14,0,24,0,20,0,16,0,12,0,8,0,4,0,14,0,0,0,20,0,0,0,28,0,0,0,60,3,0,0,64,3,0,0,68,3,0,0,4,0,0,0,109,97,105,110,0,0,0,0,11,0,0,0,216,2,0,0,116,2,0,0,16,2,0,0,192,1,0,0,120,1,0,0,52,1,0,0,244,0,0,0,172,0,0,0,120,0,0,0,64,0,0,0,4,0,0,0,34,254,255,255,28,0,0,0,0,0,0,9,28,0,0,0,32,0,0,0,5,0,0,0,0,0,6,0,8,0,4,0,6,0,0,0,0,0,128,63,1,0,0,0,26,0,0,0,1,0,0,0,25,0,0,0,250,253,255,255,20,0,0,0,0,0,0,8,16,0,0,0,20,0,0,0,4,0,0,0,76,234,255,255,1,0,0,0,25,0,0,0,3,0,0,0,24,0,0,0,3,0,0,0,2,0,0,0,46,254,255,255,20,0,0,0,0,0,0,27,16,0,0,0,20,0,0,0,3,0,0,0,128,234,255,255,1,0,0,0,24,0,0,0,2,0,0,0,23,0,0,0,1,0,0,0,94,254,255,255,20,0,0,0,0,0,0,1,32,0,0,0,36,0,0,0,1,0,0,0,80,254,255,255,0,0,0,1,1,0,0,0,1,0,0,0,0,0,0,1,1,0,0,0,23,0,0,0,3,0,0,0,22,0,0,0,5,0,0,0,4,0,0,0,66,254,255,255,16,0,0,0,0,0,0,2,24,0,0,0,28,0,0,0,52,254,255,255,1,0,0,0,1,0,0,0,1,0,0,0,1,0,0,0,22,0,0,0,3,0,0,0,21,0,0,0,7,0,0,0,6,0,0,0,222,254,255,255,20,0,0,0,0,0,0,5,36,0,0,0,40,0,0,0,2,0,0,0,46,255,255,255,2,0,0,0,2,0,0,0,2,0,0,0,2,0,0,0,0,0,0,1,1,0,0,0,21,0,0,0,1,0,0,0,20,0,0,0,30,255,255,255,20,0,0,0,0,0,0,1,32,0,0,0,36,0,0,0,1,0,0,0,16,255,255,255,0,0,0,1,1,0,0,0,1,0,0,0,0,0,0,1,1,0,0,0,20,0,0,0,3,0,0,0,19,0,0,0,9,0,0,0,8,0,0,0,2,255,255,255,16,0,0,0,0,0,0,2,24,0,0,0,28,0,0,0,244,254,255,255,1,0,0,0,1,0,0,0,1,0,0,0,1,0,0,0,19,0,0,0,3,0,0,0,18,0,0,0,11,0,0,0,10,0,0,0,0,0,14,0,26,0,20,0,16,0,12,0,11,0,4,0,14,0,0,0,36,0,0,0,0,0,0,5,52,0,0,0,56,0,0,0,2,0,0,0,0,0,14,0,24,0,23,0,16,0,12,0,8,0,4,0,14,0,0,0,2,0,0,0,2,0,0,0,2,0,0,0,2,0,0,0,0,0,0,1,1,0,0,0,18,0,0,0,1,0,0,0,17,0,0,0,0,0,14,0,24,0,20,0,16,0,12,0,11,0,4,0,14,0,0,0,32,0,0,0,0,0,0,1,44,0,0,0,48,0,0,0,1,0,0,0,12,0,20,0,19,0,12,0,8,0,7,0,12,0,0,0,0,0,0,1,1,0,0,0,1,0,0,0,0,0,0,1,1,0,0,0,17,0,0,0,3,0,0,0,16,0,0,0,13,0,0,0,12,0,0,0,0,0,14,0,20,0,0,0,16,0,12,0,11,0,4,0,14,0,0,0,28,0,0,0,0,0,0,2,36,0,0,0,40,0,0,0,12,0,16,0,0,0,12,0,8,0,4,0,12,0,0,0,1,0,0,0,1,0,0,0,1,0,0,0,1,0,0,0,16,0,0,0,3,0,0,0,0,0,0,0,15,0,0,0,14,0,0,0,1,0,0,0,26,0,0,0,1,0,0,0,0,0,0,0,27,0,0,0,56,19,0,0,220,18,0,0,36,18,0,0,128,17,0,0,108,16,0,0,72,15,0,0,100,14,0,0,88,13,0,0,92,12,0,0,104,11,0,0,204,10,0,0,28,10,0,0,124,9,0,0,208,8,0,0,108,8,0,0,252,7,0,0,76,7,0,0,80,6,0,0,180,5,0,0,0,5,0,0,4,4,0,0,104,3,0,0,180,2,0,0,184,1,0,0,36,1,0,0,128,0,0,0,4,0,0,0,74,237,255,255,0,0,0,1,24,0,0,0,32,0,0,0,60,0,0,0,27,0,0,0,0,0,0,9,80,0,0,0,2,0,0,0,255,255,255,255,6,0,0,0,44,237,255,255,8,0,0,0,16,0,0,0,1,0,0,0,128,255,255,255,255,255,255,255,1,0,0,0,0,0,128,59,27,0,0,0,83,116,97,116,101,102,117,108,80,97,114,116,105,116,105,111,110,101,100,67,97,108,108,95,49,58,48,0,2,0,0,0,1,0,0,0,6,0,0,0,194,237,255,255,0,0,0,1,24,0,0,0,32,0,0,0,60,0,0,0,26,0,0,0,0,0,0,9,120,0,0,0,2,0,0,0,255,255,255,255,6,0,0,0,164,237,255,255,8,0,0,0,16,0,0,0,1,0,0,0,252,255,255,255,255,255,255,255,1,0,0,0,25,47,226,61,64,0,0,0,115,101,113,117,101,110,116,105,97,108,95,50,95,49,47,100,101,110,115,101,95,50,95,49,47,77,97,116,77,117,108,59,115,101,113,117,101,110,116,105,97,108,95,50,95,49,47,100,101,110,115,101,95,50,95,49,47,66,105,97,115,65,100,100,0,0,0,0,2,0,0,0,1,0,0,0,6,0,0,0,98,238,255,255,0,0,0,1,24,0,0,0,32,0,0,0,60,0,0,0,25,0,0,0,0,0,0,9,104,0,0,0,2,0,0,0,255,255,255,255,16,0,0,0,68,238,255,255,8,0,0,0,16,0,0,0,1,0,0,0,128,255,255,255,255,255,255,255,1,0,0,0,148,140,253,60,48,0,0,0,115,101,113,117,101,110,116,105,97,108,95,50,95,49,47,103,108,111,98,97,108,95,97,118,101,114,97,103,101,95,112,111,111,108,105,110,103,50,100,95,50,95,49,47,77,101,97,110,0,0,0,0,2,0,0,0,1,0,0,0,16,0,0,0,242,238,255,255,0,0,0,1,24,0,0,0,40,0,0,0,68,0,0,0,24,0,0,0,0,0,0,9,200,0,0,0,4,0,0,0,255,255,255,255,8,0,0,0,8,0,0,0,16,0,0,0,220,238,255,255,8,0,0,0,16,0,0,0,1,0,0,0,128,255,255,255,255,255,255,255,1,0,0,0,223,31,136,61,138,0,0,0,115,101,113,117,101,110,116,105,97,108,95,50,95,49,47,115,101,112,97,114,97,98,108,101,95,99,111,110,118,50,100,95,56,95,49,47,82,101,108,117,59,115,101,113,117,101,110,116,105,97,108,95,50,95,49,47,115,101,112,97,114,97,98,108,101,95,99,111,110,118,50,100,95,56,95,49,47,66,105,97,115,65,100,100,59,115,101,113,117,101,110,116,105,97,108,95,50,95,49,47,115,101,112,97,114,97,98,108,101,95,99,111,110,118,50,100,95,56,95,49,47,115,101,112,97,114,97,98,108,101,95,99,111,110,118,50,100,59,0,0,4,0,0,0,1,0,0,0,8,0,0,0,8,0,0,0,16,0,0,0,234,239,255,255,0,0,0,1,24,0,0,0,40,0,0,0,72,0,0,0,23,0,0,0,0,0,0,9,128,0,0,0,4,0,0,0,255,255,255,255,8,0,0,0,8,0,0,0,12,0,0,0,212,239,255,255,8,0,0,0,20,0,0,0,1,0,0,0,41,0,0,0,0,0,0,0,0,0,0,0,1,0,0,0,17,7,142,61,62,0,0,0,115,101,113,117,101,110,116,105,97,108,95,50,95,49,47,115,101,112,97,114,97,98,108,101,95,99,111,110,118,50,100,95,56,95,49,47,115,101,112,97,114,97,98,108,101,95,99,111,110,118,50,100,47,100,101,112,116,104,119,105,115,101,0,0,4,0,0,0,1,0,0,0,8,0,0,0,8,0,0,0,12,0,0,0,154,240,255,255,0,0,0,1,24,0,0,0,40,0,0,0,68,0,0,0,22,0,0,0,0,0,0,9,104,0,0,0,4,0,0,0,255,255,255,255,8,0,0,0,8,0,0,0,12,0,0,0,132,240,255,255,8,0,0,0,16,0,0,0,1,0,0,0,128,255,255,255,255,255,255,255,1,0,0,0,79,228,135,60,42,0,0,0,115,101,113,117,101,110,116,105,97,108,95,50,95,49,47,109,97,120,95,112,111,111,108,105,110,103,50,100,95,53,95,49,47,77,97,120,80,111,111,108,50,100,0,0,4,0,0,0,1,0,0,0,8,0,0,0,8,0,0,0,12,0,0,0,50,241,255,255,0,0,0,1,24,0,0,0,40,0,0,0,68,0,0,0,21,0,0,0,0,0,0,9,200,0,0,0,4,0,0,0,255,255,255,255,16,0,0,0,16,0,0,0,12,0,0,0,28,241,255,255,8,0,0,0,16,0,0,0,1,0,0,0,128,255,255,255,255,255,255,255,1,0,0,0,79,228,135,60,138,0,0,0,115,101,113,117,101,110,116,105,97,108,95,50,95,49,47,115,101,112,97,114,97,98,108,101,95,99,111,110,118,50,100,95,55,95,49,47,82,101,108,117,59,115,101,113,117,101,110,116,105,97,108,95,50,95,49,47,115,101,112,97,114,97,98,108,101,95,99,111,110,118,50,100,95,55,95,49,47,66,105,97,115,65,100,100,59,115,101,113,117,101,110,116,105,97,108,95,50,95,49,47,115,101,112,97,114,97,98,108,101,95,99,111,110,118,50,100,95,55,95,49,47,115,101,112,97,114,97,98,108,101,95,99,111,110,118,50,100,59,0,0,4,0,0,0,1,0,0,0,16,0,0,0,16,0,0,0,12,0,0,0,42,242,255,255,0,0,0,1,24,0,0,0,40,0,0,0,72,0,0,0,20,0,0,0,0,0,0,9,128,0,0,0,4,0,0,0,255,255,255,255,16,0,0,0,16,0,0,0,6,0,0,0,20,242,255,255,8,0,0,0,20,0,0,0,1,0,0,0,221,255,255,255,255,255,255,255,0,0,0,0,1,0,0,0,53,153,177,60,62,0,0,0,115,101,113,117,101,110,116,105,97,108,95,50,95,49,47,115,101,112,97,114,97,98,108,101,95,99,111,110,118,50,100,95,55,95,49,47,115,101,112,97,114,97,98,108,101,95,99,111,110,118,50,100,47,100,101,112,116,104,119,105,115,101,0,0,4,0,0,0,1,0,0,0,16,0,0,0,16,0,0,0,6,0,0,0,218,242,255,255,0,0,0,1,24,0,0,0,40,0,0,0,68,0,0,0,19,0,0,0,0,0,0,9,104,0,0,0,4,0,0,0,255,255,255,255,16,0,0,0,16,0,0,0,6,0,0,0,196,242,255,255,8,0,0,0,16,0,0,0,1,0,0,0,128,255,255,255,255,255,255,255,1,0,0,0,253,40,221,59,42,0,0,0,115,101,113,117,101,110,116,105,97,108,95,50,95,49,47,109,97,120,95,112,111,111,108,105,110,103,50,100,95,52,95,49,47,77,97,120,80,111,111,108,50,100,0,0,4,0,0,0,1,0,0,0,16,0,0,0,16,0,0,0,6,0,0,0,114,243,255,255,0,0,0,1,24,0,0,0,40,0,0,0,68,0,0,0,18,0,0,0,0,0,0,9,200,0,0,0,4,0,0,0,255,255,255,255,32,0,0,0,32,0,0,0,6,0,0,0,92,243,255,255,8,0,0,0,16,0,0,0,1,0,0,0,128,255,255,255,255,255,255,255,1,0,0,0,253,40,221,59,138,0,0,0,115,101,113,117,101,110,116,105,97,108,95,50,95,49,47,115,101,112,97,114,97,98,108,101,95,99,111,110,118,50,100,95,54,95,49,47,82,101,108,117,59,115,101,113,117,101,110,116,105,97,108,95,50,95,49,47,115,101,112,97,114,97,98,108,101,95,99,111,110,118,50,100,95,54,95,49,47,66,105,97,115,65,100,100,59,115,101,113,117,101,110,116,105,97,108,95,50,95,49,47,115,101,112,97,114,97,98,108,101,95,99,111,110,118,50,100,95,54,95,49,47,115,101,112,97,114,97,98,108,101,95,99,111,110,118,50,100,59,0,0,4,0,0,0,1,0,0,0,32,0,0,0,32,0,0,0,6,0,0,0,106,244,255,255,0,0,0,1,24,0,0,0,40,0,0,0,68,0,0,0,17,0,0,0,0,0,0,9,124,0,0,0,4,0,0,0,255,255,255,255,32,0,0,0,32,0,0,0,1,0,0,0,84,244,255,255,8,0,0,0,16,0,0,0,1,0,0,0,64,0,0,0,0,0,0,0,1,0,0,0,62,44,53,60,63,0,0,0,115,101,113,117,101,110,116,105,97,108,95,50,95,49,47,115,101,112,97,114,97,98,108,101,95,99,111,110,118,50,100,95,54,95,49,47,115,101,112,97,114,97,98,108,101,95,99,111,110,118,50,100,47,100,101,112,116,104,119,105,115,101,49,0,4,0,0,0,1,0,0,0,32,0,0,0,32,0,0,0,1,0,0,0,110,245,255,255,0,0,0,1,20,0,0,0,52,0,0,0,16,0,0,0,0,0,0,9,64,0,0,0,194,250,255,255,3,0,0,0,8,0,0,0,16,0,0,0,1,0,0,0,0,0,0,0,0,0,0,0,1,0,0,0,46,221,154,55,19,0,0,0,116,102,108,46,112,115,101,117,100,111,95,113,99,111,110,115,116,49,51,0,4,0,0,0,1,0,0,0,3,0,0,0,3,0,0,0,1,0,0,0,218,245,255,255,0,0,0,1,20,0,0,0,52,0,0,0,15,0,0,0,0,0,0,2,64,0,0,0,84,245,255,255,8,0,0,0,20,0,0,0,1,0,0,0,0,0,0,0,0,0,0,0,0,0,0,0,1,0,0,0,56,217,154,55,19,0,0,0,116,102,108,46,112,115,101,117,100,111,95,113,99,111,110,115,116,49,50,0,1,0,0,0,1,0,0,0,58,246,255,255,0,0,0,1,20,0,0,0,112,0,0,0,14,0,0,0,0,0,0,9,124,0,0,0,180,245,255,255,8,0,0,0,60,0,0,0,6,0,0,0,0,0,0,0,0,0,0,0,0,0,0,0,0,0,0,0,0,0,0,0,0,0,0,0,0,0,0,0,0,0,0,0,0,0,0,0,0,0,0,0,0,0,0,0,0,0,0,0,0,0,0,0,6,0,0,0,37,208,201,58,46,135,188,59,211,120,236,59,111,87,63,56,38,28,248,59,32,184,217,59,19,0,0,0,116,102,108,46,112,115,101,117,100,111,95,113,99,111,110,115,116,49,49,0,4,0,0,0,6,0,0,0,1,0,0,0,1,0,0,0,1,0,0,0,226,246,255,255,0,0,0,1,20,0,0,0,112,0,0,0,13,0,0,0,0,0,0,2,124,0,0,0,92,246,255,255,8,0,0,0,60,0,0,0,6,0,0,0,0,0,0,0,0,0,0,0,0,0,0,0,0,0,0,0,0,0,0,0,0,0,0,0,0,0,0,0,0,0,0,0,0,0,0,0,0,0,0,0,0,0,0,0,0,0,0,0,0,0,0,0,6,0,0,0,11,211,142,55,40,108,133,56,75,90,167,56,227,105,7,53,200,150,175,56,207,20,154,56,19,0,0,0,116,102,108,46,112,115,101,117,100,111,95,113,99,111,110,115,116,49,48,0,1,0,0,0,6,0,0,0,126,247,255,255,0,0,0,1,20,0,0,0,116,0,0,0,12,0,0,0,0,0,0,9,128,0,0,0,210,252,255,255,3,0,0,0,8,0,0,0,60,0,0,0,6,0,0,0,0,0,0,0,0,0,0,0,0,0,0,0,0,0,0,0,0,0,0,0,0,0,0,0,0,0,0,0,0,0,0,0,0,0,0,0,0,0,0,0,0,0,0,0,0,0,0,0,0,0,0,0,6,0,0,0,94,169,187,59,232,235,117,59,172,37,187,59,237,26,6,59,146,62,209,59,89,129,141,59,18,0,0,0,116,102,108,46,112,115,101,117,100,111,95,113,99,111,110,115,116,57,0,0,4,0,0,0,1,0,0,0,3,0,0,0,3,0,0,0,6,0,0,0,42,248,255,255,0,0,0,1,20,0,0,0,108,0,0,0,11,0,0,0,0,0,0,2,120,0,0,0,164,247,255,255,8,0,0,0,56,0,0,0,6,0,0,0,0,0,0,0,0,0,0,0,0,0,0,0,0,0,0,0,0,0,0,0,0,0,0,0,0,0,0,0,0,0,0,0,0,0,0,0,0,0,0,0,0,0,0,0,0,0,0,0,6,0,0,0,66,31,34,56,7,116,212,55,124,173,33,56,111,181,103,55,133,196,52,56,164,126,244,55,18,0,0,0,116,102,108,46,112,115,101,117,100,111,95,113,99,111,110,115,116,56,0,0,1,0,0,0,6,0,0,0,194,248,255,255,0,0,0,1,20,0,0,0,184,0,0,0,10,0,0,0,0,0,0,9,196,0,0,0,60,248,255,255,8,0,0,0,108,0,0,0,12,0,0,0,0,0,0,0,0,0,0,0,0,0,0,0,0,0,0,0,0,0,0,0,0,0,0,0,0,0,0,0,0,0,0,0,0,0,0,0,0,0,0,0,0,0,0,0,0,0,0,0,0,0,0,0,0,0,0,0,0,0,0,0,0,0,0,0,0,0,0,0,0,0,0,0,0,0,0,0,0,0,0,0,0,0,0,0,0,0,0,0,0,0,0,0,0,0,0,0,0,0,0,0,12,0,0,0,102,134,15,60,208,119,181,59,57,176,158,59,29,143,134,59,153,22,205,59,191,229,195,59,15,93,72,59,28,103,169,59,109,31,187,59,52,253,149,59,57,234,211,59,31,1,210,59,18,0,0,0,116,102,108,46,112,115,101,117,100,111,95,113,99,111,110,115,116,55,0,0,4,0,0,0,12,0,0,0,1,0,0,0,1,0,0,0,6,0,0,0,178,249,255,255,0,0,0,1,20,0,0,0,180,0,0,0,9,0,0,0,0,0,0,2,192,0,0,0,44,249,255,255,8,0,0,0,104,0,0,0,12,0,0,0,0,0,0,0,0,0,0,0,0,0,0,0,0,0,0,0,0,0,0,0,0,0,0,0,0,0,0,0,0,0,0,0,0,0,0,0,0,0,0,0,0,0,0,0,0,0,0,0,0,0,0,0,0,0,0,0,0,0,0,0,0,0,0,0,0,0,0,0,0,0,0,0,0,0,0,0,0,0,0,0,0,0,0,0,0,0,0,0,0,0,0,0,0,0,0,0,12,0,0,0,163,35,71,57,226,200,251,56,159,45,220,56,245,178,186,56,93,71,14,57,22,231,7,57,64,0,139,56,88,11,235,56,183,208,1,57,169,27,208,56,196,3,19,57,117,176,17,57,18,0,0,0,116,102,108,46,112,115,101,117,100,111,95,113,99,111,110,115,116,54,0,0,1,0,0,0,12,0,0,0,0,0,22,0,30,0,24,0,23,0,16,0,12,0,8,0,0,0,0,0,0,0,7,0,22,0,0,0,0,0,0,1,40,0,0,0,208,0,0,0,8,0,0,0,0,0,0,9,220,0,0,0,0,0,18,0,16,0,0,0,0,0,12,0,8,0,0,0,0,0,4,0,18,0,0,0,3,0,0,0,8,0,0,0,108,0,0,0,12,0,0,0,0,0,0,0,0,0,0,0,0,0,0,0,0,0,0,0,0,0,0,0,0,0,0,0,0,0,0,0,0,0,0,0,0,0,0,0,0,0,0,0,0,0,0,0,0,0,0,0,0,0,0,0,0,0,0,0,0,0,0,0,0,0,0,0,0,0,0,0,0,0,0,0,0,0,0,0,0,0,0,0,0,0,0,0,0,0,0,0,0,0,0,0,0,0,0,0,0,0,0,0,12,0,0,0,62,247,198,59,89,88,131,59,90,25,67,59,126,80,136,59,57,76,195,59,178,61,108,59,223,31,129,59,179,15,83,59,5,7,197,59,204,8,156,58,19,4,81,59,56,82,186,59,18,0,0,0,116,102,108,46,112,115,101,117,100,111,95,113,99,111,110,115,116,53,0,0,4,0,0,0,1,0,0,0,3,0,0,0,3,0,0,0,12,0,0,0,178,251,255,255,0,0,0,1,20,0,0,0,180,0,0,0,7,0,0,0,0,0,0,2,192,0,0,0,44,251,255,255,8,0,0,0,104,0,0,0,12,0,0,0,0,0,0,0,0,0,0,0,0,0,0,0,0,0,0,0,0,0,0,0,0,0,0,0,0,0,0,0,0,0,0,0,0,0,0,0,0,0,0,0,0,0,0,0,0,0,0,0,0,0,0,0,0,0,0,0,0,0,0,0,0,0,0,0,0,0,0,0,0,0,0,0,0,0,0,0,0,0,0,0,0,0,0,0,0,0,0,0,0,0,0,0,0,0,0,0,12,0,0,0,167,59,211,56,116,113,139,56,186,32,79,56,8,184,144,56,188,86,207,56,113,206,122,56,238,21,137,56,5,19,96,56,213,44,209,56,151,167,165,55,28,231,93,56,13,207,197,56,18,0,0,0,116,102,108,46,112,115,101,117,100,111,95,113,99,111,110,115,116,52,0,0,1,0,0,0,12,0,0,0,146,252,255,255,0,0,0,1,20,0,0,0,232,0,0,0,6,0,0,0,0,0,0,9,244,0,0,0,12,252,255,255,8,0,0,0,140,0,0,0,16,0,0,0,0,0,0,0,0,0,0,0,0,0,0,0,0,0,0,0,0,0,0,0,0,0,0,0,0,0,0,0,0,0,0,0,0,0,0,0,0,0,0,0,0,0,0,0,0,0,0,0,0,0,0,0,0,0,0,0,0,0,0,0,0,0,0,0,0,0,0,0,0,0,0,0,0,0,0,0,0,0,0,0,0,0,0,0,0,0,0,0,0,0,0,0,0,0,0,0,0,0,0,0,0,0,0,0,0,0,0,0,0,0,0,0,0,0,0,0,0,0,0,0,0,0,0,0,0,0,0,0,0,0,0,0,16,0,0,0,163,4,124,59,248,195,102,59,27,213,190,59,155,169,101,59,199,100,168,59,209,126,109,59,135,82,172,59,155,177,67,59,14,175,251,59,179,69,213,59,54,164,219,59,124,74,171,59,53,212,220,59,179,68,236,59,24,131,246,59,222,5,134,59,18,0,0,0,116,102,108,46,112,115,101,117,100,111,95,113,99,111,110,115,116,51,0,0,4,0,0,0,16,0,0,0,1,0,0,0,1,0,0,0,12,0,0,0,178,253,255,255,0,0,0,1,20,0,0,0,228,0,0,0,5,0,0,0,0,0,0,2,240,0,0,0,44,253,255,255,8,0,0,0,136,0,0,0,16,0,0,0,0,0,0,0,0,0,0,0,0,0,0,0,0,0,0,0,0,0,0,0,0,0,0,0,0,0,0,0,0,0,0,0,0,0,0,0,0,0,0,0,0,0,0,0,0,0,0,0,0,0,0,0,0,0,0,0,0,0,0,0,0,0,0,0,0,0,0,0,0,0,0,0,0,0,0,0,0,0,0,0,0,0,0,0,0,0,0,0,0,0,0,0,0,0,0,0,0,0,0,0,0,0,0,0,0,0,0,0,0,0,0,0,0,0,0,0,0,0,0,0,0,0,0,0,0,0,0,0,16,0,0,0,135,209,139,57,18,7,128,57,243,190,211,57,214,212,126,57,25,217,186,57,230,194,131,57,17,53,191,57,214,35,89,57,12,162,11,58,25,165,236,57,76,182,243,57,22,16,190,57,156,7,245,57,161,20,3,58,133,195,8,58,232,181,148,57,18,0,0,0,116,102,108,46,112,115,101,117,100,111,95,113,99,111,110,115,116,50,0,0,1,0,0,0,16,0,0,0,194,254,255,255,0,0,0,1,20,0,0,0,112,0,0,0,4,0,0,0,0,0,0,9,124,0,0,0,60,254,255,255,8,0,0,0,60,0,0,0,6,0,0,0,0,0,0,0,0,0,0,0,0,0,0,0,0,0,0,0,0,0,0,0,0,0,0,0,0,0,0,0,0,0,0,0,0,0,0,0,0,0,0,0,0,0,0,0,0,0,0,0,0,0,0,0,6,0,0,0,115,185,220,59,15,234,4,60,175,232,218,59,14,234,218,59,116,60,206,59,148,238,1,60,18,0,0,0,116,102,108,46,112,115,101,117,100,111,95,113,99,111,110,115,116,49,0,0,2,0,0,0,6,0,0,0,16,0,0,0,98,255,255,255,0,0,0,1,20,0,0,0,112,0,0,0,3,0,0,0,0,0,0,2,124,0,0,0,220,254,255,255,8,0,0,0,60,0,0,0,6,0,0,0,0,0,0,0,0,0,0,0,0,0,0,0,0,0,0,0,0,0,0,0,0,0,0,0,0,0,0,0,0,0,0,0,0,0,0,0,0,0,0,0,0,0,0,0,0,0,0,0,0,0,0,0,6,0,0,0,124,156,90,57,78,164,131,57,43,208,88,57,134,209,88,57,255,66,76,57,34,176,128,57,17,0,0,0,116,102,108,46,112,115,101,117,100,111,95,113,99,111,110,115,116,0,0,0,1,0,0,0,6,0,0,0,0,0,22,0,28,0,24,0,23,0,16,0,12,0,8,0,0,0,0,0,0,0,7,0,22,0,0,0,0,0,0,1,24,0,0,0,24,0,0,0,2,0,0,0,0,0,0,2,32,0,0,0,4,0,4,0,4,0,0,0,14,0,0,0,97,114,105,116,104,46,99,111,110,115,116,97,110,116,0,0,1,0,0,0,2,0,0,0,0,0,22,0,32,0,28,0,27,0,20,0,16,0,12,0,0,0,0,0,8,0,7,0,22,0,0,0,0,0,0,1,24,0,0,0,52,0,0,0,84,0,0,0,1,0,0,0,0,0,0,9,112,0,0,0,4,0,0,0,255,255,255,255,32,0,0,0,32,0,0,0,1,0,0,0,12,0,12,0,0,0,0,0,8,0,4,0,12,0,0,0,8,0,0,0,20,0,0,0,1,0,0,0,128,255,255,255,255,255,255,255,0,0,0,0,1,0,0,0,115,249,127,63,33,0,0,0,115,101,114,118,105,110,103,95,100,101,102,97,117,108,116,95,107,101,114,97,115,95,116,101,110,115,111,114,95,49,56,58,48,0,0,0,4,0,0,0,1,0,0,0,32,0,0,0,32,0,0,0,1,0,0,0,6,0,0,0,116,0,0,0,84,0,0,0,64,0,0,0,44,0,0,0,24,0,0,0,4,0,0,0,176,255,255,255,25,0,0,0,2,0,0,0,0,0,0,25,192,255,255,255,9,0,0,0,4,0,0,0,0,0,0,9,208,255,255,255,40,0,0,0,2,0,0,0,0,0,0,40,224,255,255,255,17,0,0,0,2,0,0,0,0,0,0,17,240,255,255,255,3,0,0,0,3,0,0,0,0,0,0,3,12,0,16,0,15,0,0,0,8,0,4,0,12,0,0,0,4,0,0,0,3,0,0,0,0,0,0,4};
const unsigned int model_tflite_len = 7752;
